TRT-100300-EntropyCalibration2
input_1:0: 3c010a14
conv1/convolution:0: 3e3a483f
Reshape__209:0_output: 39b53cca
ONNXTRT_Broadcast_output: 39b53cca
conv1/BiasAdd:0: 3e3a85e6
bn_conv1/batchnorm/mul__10_output: 3c5c0158
bn_conv1/batchnorm/mul_1:0: 3dd416b4
bn_conv1/batchnorm/sub__11_output: 3d112b75
bn_conv1/batchnorm/add_1:0: 3de884dc
activation_1/Relu:0: 3dcb6d9a
block_1a_conv_shortcut/BiasAdd:0: 3e82aec1
block_1a_bn_shortcut/batchnorm/mul__22_output: 3ade33e1
block_1a_bn_shortcut/batchnorm/mul_1:0: 3d1e18be
block_1a_bn_shortcut/batchnorm/sub__23_output: 3c969344
block_1a_bn_shortcut/batchnorm/add_1:0: 3d12ab31
block_1a_conv_1/convolution:0: 400611eb
Reshape__211:0_output: 376a01f2
ONNXTRT_Broadcast_1_output: 376a01f2
block_1a_conv_1/BiasAdd:0: 400611fc
block_1a_bn_1/batchnorm/mul__14_output: 3a7a1454
block_1a_bn_1/batchnorm/mul_1:0: 3e74aa3d
block_1a_bn_1/batchnorm/sub__15_output: 3ce25a33
block_1a_bn_1/batchnorm/add_1:0: 3e30f91f
block_1a_relu_1/Relu:0: 3d8a643e
block_1a_conv_2/convolution:0: 3f6af237
Reshape__213:0_output: 37561796
ONNXTRT_Broadcast_3_output: 37561796
block_1a_conv_2/BiasAdd:0: 3f6af287
block_1a_bn_2/batchnorm/mul__20_output: 3a8523b2
block_1a_bn_2/batchnorm/mul_1:0: 3dbfb604
block_1a_bn_2/batchnorm/sub__21_output: 3d27205f
block_1a_bn_2/batchnorm/add_1:0: 3d71b07e
add_1/add:0: 3de1ae2a
block_1a_relu/Relu:0: 3da4997e
block_1b_conv_shortcut/BiasAdd:0: 3ee9f59c
block_1b_bn_shortcut/batchnorm/mul__34_output: 3b484363
block_1b_bn_shortcut/batchnorm/mul_1:0: 3e1aa7c5
block_1b_bn_shortcut/batchnorm/sub__35_output: 3d44959c
block_1b_bn_shortcut/batchnorm/add_1:0: 3dc0f28c
block_1b_conv_1/convolution:0: 3f63b1fa
Reshape__215:0_output: 37125bff
ONNXTRT_Broadcast_5_output: 37125bff
block_1b_conv_1/BiasAdd:0: 3f63b1de
block_1b_bn_1/batchnorm/mul__26_output: 3ac3feec
block_1b_bn_1/batchnorm/mul_1:0: 3e2bcba1
block_1b_bn_1/batchnorm/sub__27_output: 3db0c32a
block_1b_bn_1/batchnorm/add_1:0: 3df88166
block_1b_relu_1/Relu:0: 3db964b3
block_1b_conv_2/convolution:0: 3f3c8e83
Reshape__217:0_output: 36bd78a0
ONNXTRT_Broadcast_7_output: 36bd78a0
block_1b_conv_2/BiasAdd:0: 3f3c8e9b
block_1b_bn_2/batchnorm/mul__32_output: 3ac3ea84
block_1b_bn_2/batchnorm/mul_1:0: 3dccd34d
block_1b_bn_2/batchnorm/sub__33_output: 3cbfa9ae
block_1b_bn_2/batchnorm/add_1:0: 3dcff85a
add_2/add:0: 3e2a76b2
block_1b_relu/Relu:0: 3e19e123
block_1c_conv_shortcut/BiasAdd:0: 3f40b4aa
block_1c_bn_shortcut/batchnorm/mul__46_output: 3b104585
block_1c_bn_shortcut/batchnorm/mul_1:0: 3e01fef4
block_1c_bn_shortcut/batchnorm/sub__47_output: 3d3c7888
block_1c_bn_shortcut/batchnorm/add_1:0: 3db3be55
block_1c_conv_1/convolution:0: 3fe70d7f
Reshape__219:0_output: 369bd96d
ONNXTRT_Broadcast_9_output: 369bd96d
block_1c_conv_1/BiasAdd:0: 3fe70d81
block_1c_bn_1/batchnorm/mul__38_output: 3a913c88
block_1c_bn_1/batchnorm/mul_1:0: 3e0e1238
block_1c_bn_1/batchnorm/sub__39_output: 3d00dfa8
block_1c_bn_1/batchnorm/add_1:0: 3ddbdfb8
block_1c_relu_1/Relu:0: 3da7c6c9
block_1c_conv_2/convolution:0: 3f505056
Reshape__221:0_output: 36cc22e4
ONNXTRT_Broadcast_11_output: 36cc22e4
block_1c_conv_2/BiasAdd:0: 3f50503c
block_1c_bn_2/batchnorm/mul__44_output: 3b611c1d
block_1c_bn_2/batchnorm/mul_1:0: 3e1e3fbb
block_1c_bn_2/batchnorm/sub__45_output: 3ccd1814
block_1c_bn_2/batchnorm/add_1:0: 3e34f523
add_3/add:0: 3e45a310
block_1c_relu/Relu:0: 3e124134
block_2a_conv_shortcut/BiasAdd:0: 3f3f515c
block_2a_bn_shortcut/batchnorm/mul__58_output: 3ab66072
block_2a_bn_shortcut/batchnorm/mul_1:0: 3d697a8c
block_2a_bn_shortcut/batchnorm/sub__59_output: 3c85ae7b
block_2a_bn_shortcut/batchnorm/add_1:0: 3d464b89
block_2a_conv_1/convolution:0: 4003a318
Reshape__223:0_output: 361a66b1
ONNXTRT_Broadcast_13_output: 361a66b1
block_2a_conv_1/BiasAdd:0: 4003a31e
block_2a_bn_1/batchnorm/mul__50_output: 3a4c107e
block_2a_bn_1/batchnorm/mul_1:0: 3de9ac64
block_2a_bn_1/batchnorm/sub__51_output: 3d320538
block_2a_bn_1/batchnorm/add_1:0: 3db4c562
block_2a_relu_1/Relu:0: 3db4f279
block_2a_conv_2/convolution:0: 3fa9721e
Reshape__225:0_output: 3658d96d
ONNXTRT_Broadcast_15_output: 3658d96d
block_2a_conv_2/BiasAdd:0: 3fa97215
block_2a_bn_2/batchnorm/mul__56_output: 3ab8a67e
block_2a_bn_2/batchnorm/mul_1:0: 3e369f25
block_2a_bn_2/batchnorm/sub__57_output: 3d33cdb5
block_2a_bn_2/batchnorm/add_1:0: 3e06294b
add_4/add:0: 3e274a3c
block_2a_relu/Relu:0: 3e08d3d0
block_2b_conv_shortcut/BiasAdd:0: 3f4c3867
block_2b_bn_shortcut/batchnorm/mul__70_output: 3abb3093
block_2b_bn_shortcut/batchnorm/mul_1:0: 3dbbad28
block_2b_bn_shortcut/batchnorm/sub__71_output: 3cd0265f
block_2b_bn_shortcut/batchnorm/add_1:0: 3d9f189e
block_2b_conv_1/convolution:0: 3ffa2a91
Reshape__227:0_output: 35f1056d
ONNXTRT_Broadcast_17_output: 35f1056d
block_2b_conv_1/BiasAdd:0: 3ffa2a8e
block_2b_bn_1/batchnorm/mul__62_output: 3a4f8509
block_2b_bn_1/batchnorm/mul_1:0: 3de51e46
block_2b_bn_1/batchnorm/sub__63_output: 3cf09f71
block_2b_bn_1/batchnorm/add_1:0: 3ddb2886
block_2b_relu_1/Relu:0: 3dcaff3c
block_2b_conv_2/convolution:0: 3f544231
Reshape__229:0_output: 366c5bc6
ONNXTRT_Broadcast_19_output: 366c5bc6
block_2b_conv_2/BiasAdd:0: 3f54424e
block_2b_bn_2/batchnorm/mul__68_output: 3af03d32
block_2b_bn_2/batchnorm/mul_1:0: 3dfa7120
block_2b_bn_2/batchnorm/sub__69_output: 3cd9986e
block_2b_bn_2/batchnorm/add_1:0: 3ddde67c
add_5/add:0: 3e26f28d
block_2b_relu/Relu:0: 3e1cab2e
block_2c_conv_shortcut/BiasAdd:0: 3f72dc67
block_2c_bn_shortcut/batchnorm/mul__82_output: 3adb493c
block_2c_bn_shortcut/batchnorm/mul_1:0: 3dea7afb
block_2c_bn_shortcut/batchnorm/sub__83_output: 3d05288a
block_2c_bn_shortcut/batchnorm/add_1:0: 3dba12e5
block_2c_conv_1/convolution:0: 3fdb21a2
Reshape__231:0_output: 35f4bc50
ONNXTRT_Broadcast_21_output: 35f4bc50
block_2c_conv_1/BiasAdd:0: 3fdb21a3
block_2c_bn_1/batchnorm/mul__74_output: 3a8878d9
block_2c_bn_1/batchnorm/mul_1:0: 3df00b4d
block_2c_bn_1/batchnorm/sub__75_output: 3ce42aa3
block_2c_bn_1/batchnorm/add_1:0: 3e000583
block_2c_relu_1/Relu:0: 3da5de7c
block_2c_conv_2/convolution:0: 3f5f6e78
Reshape__233:0_output: 36833bb9
ONNXTRT_Broadcast_23_output: 36833bb9
block_2c_conv_2/BiasAdd:0: 3f5f6e8c
block_2c_bn_2/batchnorm/mul__80_output: 3b316934
block_2c_bn_2/batchnorm/mul_1:0: 3e263beb
block_2c_bn_2/batchnorm/sub__81_output: 3d3181b6
block_2c_bn_2/batchnorm/add_1:0: 3e04f0e7
add_6/add:0: 3e409dc7
block_2c_relu/Relu:0: 3e0f8207
block_2d_conv_shortcut/BiasAdd:0: 3f79a2c8
block_2d_bn_shortcut/batchnorm/mul__94_output: 3ad350e3
block_2d_bn_shortcut/batchnorm/mul_1:0: 3dcf05b7
block_2d_bn_shortcut/batchnorm/sub__95_output: 3c8134d6
block_2d_bn_shortcut/batchnorm/add_1:0: 3dd802f3
block_2d_conv_1/convolution:0: 3fdb3922
Reshape__235:0_output: 3617c3ff
ONNXTRT_Broadcast_25_output: 3617c3ff
block_2d_conv_1/BiasAdd:0: 3fdb3922
block_2d_bn_1/batchnorm/mul__86_output: 3aa56a96
block_2d_bn_1/batchnorm/mul_1:0: 3e0d2df7
block_2d_bn_1/batchnorm/sub__87_output: 3cea06b2
block_2d_bn_1/batchnorm/add_1:0: 3e02e4ce
block_2d_relu_1/Relu:0: 3dc4f0c8
block_2d_conv_2/convolution:0: 3faa5d48
Reshape__237:0_output: 3650ebd6
ONNXTRT_Broadcast_27_output: 3650ebd6
block_2d_conv_2/BiasAdd:0: 3faa5d3c
block_2d_bn_2/batchnorm/mul__92_output: 3b10444e
block_2d_bn_2/batchnorm/mul_1:0: 3e3d3c91
block_2d_bn_2/batchnorm/sub__93_output: 3cbb2805
block_2d_bn_2/batchnorm/add_1:0: 3e2122ab
add_7/add:0: 3e433c21
block_2d_relu/Relu:0: 3e433c21
block_3a_conv_shortcut/BiasAdd:0: 3f9b4fcd
block_3a_bn_shortcut/batchnorm/mul__106_output: 3a5e75ae
block_3a_bn_shortcut/batchnorm/mul_1:0: 3db15573
block_3a_bn_shortcut/batchnorm/sub__107_output: 3ca65c2a
block_3a_bn_shortcut/batchnorm/add_1:0: 3daa3f18
block_3a_conv_1/convolution:0: 401870dd
Reshape__239:0_output: 35ca5137
ONNXTRT_Broadcast_29_output: 35ca5137
block_3a_conv_1/BiasAdd:0: 401870df
block_3a_bn_1/batchnorm/mul__98_output: 3a410dab
block_3a_bn_1/batchnorm/mul_1:0: 3e02bd87
block_3a_bn_1/batchnorm/sub__99_output: 3cb43b7d
block_3a_bn_1/batchnorm/add_1:0: 3ded6124
block_3a_relu_1/Relu:0: 3df2a5b2
block_3a_conv_2/convolution:0: 3ff32433
Reshape__241:0_output: 36111d5c
ONNXTRT_Broadcast_31_output: 36111d5c
block_3a_conv_2/BiasAdd:0: 3ff32430
block_3a_bn_2/batchnorm/mul__104_output: 3aab826e
block_3a_bn_2/batchnorm/mul_1:0: 3e212764
block_3a_bn_2/batchnorm/sub__105_output: 3d189760
block_3a_bn_2/batchnorm/add_1:0: 3e0cac5e
add_8/add:0: 3e352a9d
block_3a_relu/Relu:0: 3e352a9d
block_3b_conv_shortcut/BiasAdd:0: 3fa61d5d
block_3b_bn_shortcut/batchnorm/mul__118_output: 3aa7e058
block_3b_bn_shortcut/batchnorm/mul_1:0: 3e147fd2
block_3b_bn_shortcut/batchnorm/sub__119_output: 3c947f11
block_3b_bn_shortcut/batchnorm/add_1:0: 3de67ff3
block_3b_conv_1/convolution:0: 3ffaa889
Reshape__243:0_output: 35bdb069
ONNXTRT_Broadcast_33_output: 35bdb069
block_3b_conv_1/BiasAdd:0: 3ffaa885
block_3b_bn_1/batchnorm/mul__110_output: 3a42e4d6
block_3b_bn_1/batchnorm/mul_1:0: 3e0966a9
block_3b_bn_1/batchnorm/sub__111_output: 3ce6f6d4
block_3b_bn_1/batchnorm/add_1:0: 3ddef696
block_3b_relu_1/Relu:0: 3db4a396
block_3b_conv_2/convolution:0: 3f8c4705
Reshape__245:0_output: 362e804c
ONNXTRT_Broadcast_35_output: 362e804c
block_3b_conv_2/BiasAdd:0: 3f8c4700
block_3b_bn_2/batchnorm/mul__116_output: 3ad289be
block_3b_bn_2/batchnorm/mul_1:0: 3e026d3a
block_3b_bn_2/batchnorm/sub__117_output: 3cc3e483
block_3b_bn_2/batchnorm/add_1:0: 3e0ba24d
add_9/add:0: 3e1e0fde
block_3b_relu/Relu:0: 3e1e0fde
block_3c_conv_shortcut/BiasAdd:0: 3fc0ce20
block_3c_bn_shortcut/batchnorm/mul__130_output: 3aa6175f
block_3c_bn_shortcut/batchnorm/mul_1:0: 3e0eb2ac
block_3c_bn_shortcut/batchnorm/sub__131_output: 3cdf7c74
block_3c_bn_shortcut/batchnorm/add_1:0: 3df28af3
block_3c_conv_1/convolution:0: 3fe36df3
Reshape__247:0_output: 35cd9aa6
ONNXTRT_Broadcast_37_output: 35cd9aa6
block_3c_conv_1/BiasAdd:0: 3fe36def
block_3c_bn_1/batchnorm/mul__122_output: 3a433b8f
block_3c_bn_1/batchnorm/mul_1:0: 3deda157
block_3c_bn_1/batchnorm/sub__123_output: 3cd53d0d
block_3c_bn_1/batchnorm/add_1:0: 3dcd17f3
block_3c_relu_1/Relu:0: 3db912d7
block_3c_conv_2/convolution:0: 3f793d30
Reshape__249:0_output: 362435c7
ONNXTRT_Broadcast_39_output: 362435c7
block_3c_conv_2/BiasAdd:0: 3f793d34
block_3c_bn_2/batchnorm/mul__128_output: 3add6592
block_3c_bn_2/batchnorm/mul_1:0: 3e26af66
block_3c_bn_2/batchnorm/sub__129_output: 3cd830cb
block_3c_bn_2/batchnorm/add_1:0: 3e007d15
add_10/add:0: 3e2d0a96
block_3c_relu/Relu:0: 3e4920bb
block_3d_conv_shortcut/BiasAdd:0: 3fbf1501
block_3d_bn_shortcut/batchnorm/mul__142_output: 3aa614c3
block_3d_bn_shortcut/batchnorm/mul_1:0: 3e1f0535
block_3d_bn_shortcut/batchnorm/sub__143_output: 3cf85a28
block_3d_bn_shortcut/batchnorm/add_1:0: 3dee4205
block_3d_conv_1/convolution:0: 4005a03c
Reshape__251:0_output: 35d94b10
ONNXTRT_Broadcast_41_output: 35d94b10
block_3d_conv_1/BiasAdd:0: 4005a03e
block_3d_bn_1/batchnorm/mul__134_output: 3a651f06
block_3d_bn_1/batchnorm/mul_1:0: 3e0f3277
block_3d_bn_1/batchnorm/sub__135_output: 3cce1d2c
block_3d_bn_1/batchnorm/add_1:0: 3dee7594
block_3d_relu_1/Relu:0: 3dd136d8
block_3d_conv_2/convolution:0: 3f84c707
Reshape__253:0_output: 3624108f
ONNXTRT_Broadcast_43_output: 3624108f
block_3d_conv_2/BiasAdd:0: 3f84c70a
block_3d_bn_2/batchnorm/mul__140_output: 3af69acd
block_3d_bn_2/batchnorm/mul_1:0: 3e146ccf
block_3d_bn_2/batchnorm/sub__141_output: 3ce0119f
block_3d_bn_2/batchnorm/add_1:0: 3dfde601
add_11/add:0: 3e3279f0
block_3d_relu/Relu:0: 3e4ec2d0
block_3e_conv_shortcut/BiasAdd:0: 3fb05b6a
block_3e_bn_shortcut/batchnorm/mul__154_output: 3ac6ab37
block_3e_bn_shortcut/batchnorm/mul_1:0: 3e2b2192
block_3e_bn_shortcut/batchnorm/sub__155_output: 3cd8b924
block_3e_bn_shortcut/batchnorm/add_1:0: 3e2c6db4
block_3e_conv_1/convolution:0: 4014b1fc
Reshape__255:0_output: 35db013e
ONNXTRT_Broadcast_45_output: 35db013e
block_3e_conv_1/BiasAdd:0: 4014b1f9
block_3e_bn_1/batchnorm/mul__146_output: 3a560741
block_3e_bn_1/batchnorm/mul_1:0: 3e14dc64
block_3e_bn_1/batchnorm/sub__147_output: 3d1657ed
block_3e_bn_1/batchnorm/add_1:0: 3df3134d
block_3e_relu_1/Relu:0: 3ddfa133
block_3e_conv_2/convolution:0: 3f8da4f0
Reshape__257:0_output: 36364343
ONNXTRT_Broadcast_47_output: 36364343
block_3e_conv_2/BiasAdd:0: 3f8da4e9
block_3e_bn_2/batchnorm/mul__152_output: 3af2030d
block_3e_bn_2/batchnorm/mul_1:0: 3e200c91
block_3e_bn_2/batchnorm/sub__153_output: 3d1af94e
block_3e_bn_2/batchnorm/add_1:0: 3e0efcca
add_12/add:0: 3e22ad26
block_3e_relu/Relu:0: 3e32847c
block_3f_conv_shortcut/BiasAdd:0: 3fca0043
block_3f_bn_shortcut/batchnorm/mul__166_output: 3ab72aad
block_3f_bn_shortcut/batchnorm/mul_1:0: 3e1aee86
block_3f_bn_shortcut/batchnorm/sub__167_output: 3d0601b9
block_3f_bn_shortcut/batchnorm/add_1:0: 3e0e23bf
block_3f_conv_1/convolution:0: 4023c7a1
Reshape__259:0_output: 35c079c8
ONNXTRT_Broadcast_49_output: 35c079c8
block_3f_conv_1/BiasAdd:0: 4023c7a3
block_3f_bn_1/batchnorm/mul__158_output: 3a7db70e
block_3f_bn_1/batchnorm/mul_1:0: 3e269513
block_3f_bn_1/batchnorm/sub__159_output: 3d430476
block_3f_bn_1/batchnorm/add_1:0: 3e0aa5c6
block_3f_relu_1/Relu:0: 3e06ec01
block_3f_conv_2/convolution:0: 3fc0c3b1
Reshape__261:0_output: 36553f14
ONNXTRT_Broadcast_51_output: 36553f14
block_3f_conv_2/BiasAdd:0: 3fc0c3ae
block_3f_bn_2/batchnorm/mul__164_output: 3afdc710
block_3f_bn_2/batchnorm/mul_1:0: 3e2032ea
block_3f_bn_2/batchnorm/sub__165_output: 3ce811e6
block_3f_bn_2/batchnorm/add_1:0: 3e0e6988
add_13/add:0: 3e4543a0
block_3f_relu/Relu:0: 3e4543a0
block_4a_conv_shortcut/BiasAdd:0: 3fc132ad
block_4a_bn_shortcut/batchnorm/mul__178_output: 3ab84b13
block_4a_bn_shortcut/batchnorm/mul_1:0: 3dbc4e76
block_4a_bn_shortcut/batchnorm/sub__179_output: 3cbc9976
block_4a_bn_shortcut/batchnorm/add_1:0: 3db24dc8
block_4a_conv_1/convolution:0: 4013f2ef
Reshape__263:0_output: 35eb1f2b
ONNXTRT_Broadcast_53_output: 35eb1f2b
block_4a_conv_1/BiasAdd:0: 4013f2ef
block_4a_bn_1/batchnorm/mul__170_output: 3a7e7661
block_4a_bn_1/batchnorm/mul_1:0: 3e3cddbb
block_4a_bn_1/batchnorm/sub__171_output: 3d05092c
block_4a_bn_1/batchnorm/add_1:0: 3e1c148c
block_4a_relu_1/Relu:0: 3dcdb693
block_4a_conv_2/convolution:0: 3fa80510
Reshape__265:0_output: 36116651
ONNXTRT_Broadcast_55_output: 36116651
block_4a_conv_2/BiasAdd:0: 3fa80514
block_4a_bn_2/batchnorm/mul__176_output: 3b05c76d
block_4a_bn_2/batchnorm/mul_1:0: 3e34d884
block_4a_bn_2/batchnorm/sub__177_output: 3d6a7301
block_4a_bn_2/batchnorm/add_1:0: 3dffcad0
add_14/add:0: 3e5afdfe
block_4a_relu/Relu:0: 3e13068a
block_4b_conv_shortcut/BiasAdd:0: 3fc2d0f5
block_4b_bn_shortcut/batchnorm/mul__190_output: 3b13e50b
block_4b_bn_shortcut/batchnorm/mul_1:0: 3da6c214
block_4b_bn_shortcut/batchnorm/sub__191_output: 3cc2b56c
block_4b_bn_shortcut/batchnorm/add_1:0: 3e20eff4
block_4b_conv_1/convolution:0: 4036b615
Reshape__267:0_output: 35eb4e34
ONNXTRT_Broadcast_57_output: 35eb4e34
block_4b_conv_1/BiasAdd:0: 4036b613
block_4b_bn_1/batchnorm/mul__182_output: 3aad45ee
block_4b_bn_1/batchnorm/mul_1:0: 3e6c8d01
block_4b_bn_1/batchnorm/sub__183_output: 3ced7906
block_4b_bn_1/batchnorm/add_1:0: 3e1c5ef5
block_4b_relu_1/Relu:0: 3dd94af6
block_4b_conv_2/convolution:0: 3fd6676e
Reshape__269:0_output: 360f4f33
ONNXTRT_Broadcast_59_output: 360f4f33
block_4b_conv_2/BiasAdd:0: 3fd6676d
block_4b_bn_2/batchnorm/mul__188_output: 3b835f86
block_4b_bn_2/batchnorm/mul_1:0: 3e46ac60
block_4b_bn_2/batchnorm/sub__189_output: 3d806cbb
block_4b_bn_2/batchnorm/add_1:0: 3e0e01c3
add_15/add:0: 3e2e2b66
block_4b_relu/Relu:0: 3e2ba789
block_4c_conv_shortcut/BiasAdd:0: 40040738
block_4c_bn_shortcut/batchnorm/mul__202_output: 3a22ba5f
block_4c_bn_shortcut/batchnorm/mul_1:0: 3d7a910a
block_4c_bn_shortcut/batchnorm/sub__203_output: 3ba8082c
block_4c_bn_shortcut/batchnorm/add_1:0: 3d5e552a
block_4c_conv_1/convolution:0: 40054e17
Reshape__271:0_output: 363ac949
ONNXTRT_Broadcast_61_output: 363ac949
block_4c_conv_1/BiasAdd:0: 40054e17
block_4c_bn_1/batchnorm/mul__194_output: 3b1270dc
block_4c_bn_1/batchnorm/mul_1:0: 3dea4677
block_4c_bn_1/batchnorm/sub__195_output: 3ca36713
block_4c_bn_1/batchnorm/add_1:0: 3dee0dda
block_4c_relu_1/Relu:0: 3dc3685b
block_4c_conv_2/convolution:0: 4020dfe9
Reshape__273:0_output: 38704e6d
ONNXTRT_Broadcast_63_output: 38704e6d
block_4c_conv_2/BiasAdd:0: 4020dff9
block_4c_bn_2/batchnorm/mul__200_output: 3ab5aa38
block_4c_bn_2/batchnorm/mul_1:0: 3d6aeba4
block_4c_bn_2/batchnorm/sub__201_output: 3c70c5dc
block_4c_bn_2/batchnorm/add_1:0: 3d00a6be
add_16/add:0: 3d405ead
block_4c_relu/Relu:0: 3d270217
output_cov/convolution:0: 3fd4ddf5
Reshape__275:0_output: 3da6fade
ONNXTRT_Broadcast_65_output: 3da6fade
output_cov/BiasAdd:0: 400ea4e8
output_cov/Sigmoid:0: 3c00f284
output_bbox/convolution:0: 3e04ede8
Reshape__277:0_output: 3b88b4d6
ONNXTRT_Broadcast_68_output: 3b88b4d6
output_bbox/BiasAdd:0: 3e1e3c70
